MEMORY_INITIALIZATION_RADIX=2; 
MEMORY_INITIALIZATION_VECTOR=
00000000000001100110100011000000111111111111101101010001010111100000000000001000101110101011111111111111111111101110001001010000111111111111110101010001100001100000000000000100101001111000101111111111111110011101011000100010000000000000100100110101001000100000000000000101110010101000110111111111111110101001011100010111000000000000000101000101111110001111111111111011101010100100000100000000000000011101101101000111000000000000001101010111001010101111111111111100110100100110010100000000000001000111110001110000000000000000001100000000011010001111111111111110100110100101010011111111111111100011000001101010000000000000111011101100111101000000000000001001010010101101100100000000000001001000000101011000000000000000001001100111110110000000000000000100010100110111001100000000000001001010111011110000000000000000011110000101001111110000000000000000011010111101011000000000000000010110100011010011000000000000010011111100101100100000000000000110011001001110000111111111111110010001101000011111111111111111011010010111101001011111111111111110111100011100110100000000000000010101110000011111111111111111110101010101101111001111111111111111100011010101010100000000000000110001100000111000111111111111011000111001111010111111111111111110011010110001010000000000000000011101001100101001111111111111110110001100011010001111111111111000001000101110010000000000000000011100011111111011000000000000010011111110010010000000000000000010010010101001010000000000000001101000100101100101000000000000011000100011100010111111111111111000111110001111110100000000000001000000000111110000000000000000010010011111100001100000000000000111000011000111010011111111111111101101010011110111111111111111100011001100001110011111111111111110011011111001000100000000000001110110101001100110000000000000010101100111101001011111111111111101011010010000010000000000000001011000110110110010000000000000101001110100110001001111111111111001101100101001010111111111111111000111011110010001111111111111101111010101111110101111111111111110100001001010011111111111111110100010000110001000000000000000011011111010101001000000000000001001001100110110110011111111111111011010010000111101000000000000000011100011101100010000000000010000010111001001111100000000000000011101000101001000000000000000011000110001100110010000000000000111001100010100100000000000000010111010110110111110000000000000011101100010100000111111111111111000010100101100111111111111111110100001101111010101111111111111011101010000011000101111111111111011110101000010011100000000000001001100100101001100000000000000011010010111001100000000000000000101011000110101111011111111111111110110011011101011000000000000001111100001111000001111111111111010110000111011010000000000000011001000011100110110111111111111101011001010101001100000000000000100100001101100010000000000000010100010100101100111000000000000101111011101011110100000000000000000001000010000001000000000000001001001111110110011000000000000000110010100010101011111111111111011101010001110000100000000000001110010000011001000000000000000000011111000010110100000000000000001000011011110110000000000000010011110001001110101000000000000110010011110000110100000000000010001010111011100000011111111111110010001010110100101,
