MEMORY_INITIALIZATION_RADIX=2; 
MEMORY_INITIALIZATION_VECTOR=
0000000100101000000001010000111000001110101110111111101111001110111010010011111000010111111010111111110010000100001000001101101111110111101000011110111010111011111111111001110100001001001110110001101100110000111110000100111100001010011110011110101110111000000010111110110011110001111001110000010100110101001000100111010000011000010001010001000110111000110101010111100111111111101110001100101100010001000000101101111100000101000001111101110000111011111101000100101000000000100010101111101011101011111101011000000100000111101000001110110011101000000000010101001011110100101000101110101101110111111101110001111011100111100011011111010100111111111110100100101100001001001000001111111000101001000110110110101100011100010101001111000010101111111111001100100000001000000110100000010110011000110110100011000111001001001001001111111100111011111011011010000011010010001110011111001100011010000110111111011100001001011010001111000111011000000101110000001111111000101011111111011000000100111101001000001111111000100010011110100110110011101100000000010111110011110101001110100001100111110001001001001000101110010101110001000110001111000110011100011100010001001000010000100001111111000000000000000111110110000110000000110000001010000011000001001000001001000100110001100001000111111010111101010000000110100001011111100101101001101110011010001111011101100010110010010110101001111001010111010111010011110100010000010000110110000110001111000111111011000011001110111010010011000001001100101000000110011100010000101111110001101111101001101100000101011001100000111001100000001000010001011100101011011010100000100000111110