MEMORY_INITIALIZATION_RADIX=2; 
MEMORY_INITIALIZATION_VECTOR=
0000110011110110001001010101111000000010110001101101100000100100,
0001000111111100010001011010111101010010010100011100011100100000,
0000110001110011001010110000111000101111111101011100011101110110,
0000001000111110010110011110110000101110111010001101110101000001,
1111011100011000001100100001100000110001101101011100101000101101,
1111010011010110010000000100011100011010000100011101011111100111,
1111110010011111010111010110110100111110010011011100001100110110,
0000010111100011010101011001001101100011000011001011101110010111,
0000011110000111001111000001111100110100110000001100000011101101,
1110111111100011000110101110101100100100000111101101101000000110,
1111110000010101010000000100011100110110000000011101110100011111,
0001000000011110010100011111100100101100000001001101010010011010,
0000110001100010001111001100110001101101001010111101111100110101,
0000010001110010010101111000000100110111001010111101011000000101,
1111101001100100001011100011111100111000110111101101001111100011,
0000110101000001000101011011101000100011011111111011110110001001,
0000011000011110000111001001000101010001010110111100111000110101,
1111100000011000010011010110110101110001000011101100100010110010,
0001101110010010010000001110000000011110000001011101100000110100,
1111001101101111000101011001111000100110110011101100100000110110,
1110100101100000001110001101111100111111101011101110001101111110,
1111111000011001000101001110101101001011001111101110001110011100,
0000000101101110001100110100010000111010011100111101111010010010,
0000110000011110001010001111011000011100100100001100011011101010,
1111010111100110000101011000010100100100110101111100111010000100,



