MEMORY_INITIALIZATION_RADIX=2; 
MEMORY_INITIALIZATION_VECTOR=
0001010110100110111101011100100010101101100101110000100001111110111100111001011111110101101001010011000101011001111100100111010100010111101110000000100110010000111101101111011111111001100011000000110010101000000010110000110011111110111100100000100011011000000001000001000000100010011111111111101011010011000000111101111111110001011100000000110000011111111010101000011111111011010000001101100010010111000011010011101111101110011011010000000010111110111001011110101000000100111011111110101101110110111011011110000100001011010011111111001000000001111101010011100000011000101100110000010110111000111101111010111100001001111101011101110101000111000010000100110100001010111010111101110101010100111111111011010100010100011110011101011111100100110001101011101111111101101011011101101100001101000011011010101000011100000000100000011010110001111101101101111000010111100011001111010011000110111011000110101011110110100010011101000010101111111001100001011000000111000001101110000110110100111100001111100011000010111101101111110100101111000111000100100011100001011110001111100111010111111010011100101111101000000010101111101101110001000100010000101111011110100011011101010010011010111111100011011011111011101000011111011100011110111110110010000100010001001000110000001011010100111111100010011100111000100001011111100101110101000100001111000111010000101101111111010000010111000011000100010011001011011110011111111100001011111111000001100011001000010101100000110100001001111101100011101111111110010100000000110000110100000111101111101000000100011001101110011101110001111100111000111111100101100001000000010000000010