MEMORY_INITIALIZATION_RADIX=2; 
MEMORY_INITIALIZATION_VECTOR=
11111001110000010000011010101101111011010100011100000011000110110000010100011101000101110110110000001100100101100000000001100110111111111010001100000000000011100000110010010011000000011010010000000100110001001111010010010010000001000001011111100110110011001111110110001110111110000010100111111001001110101111101110111110111111101111011000001110011101101111110001100001111110111110100100000001111011010000000110010100000000111111110011110011000101100000010001000101111111100110101011110101111110110000011011001110,
00000100010100110000000011110001111101000000011111101100101011010000000111001010000000100001011100000101110110101111101110011111000011000010000111111111000111001111110111001101111110010001101000000100101111100000100100001101111111110100111111110010100100011111110100010001111111100000110011110111110101000000001101000100000010110011010011111110010001110000011111101100000000111110011111110101111100000000111011110011000001100110001111101111110110100000001010001111111110011010010011100101000110000001101110111001,
00000100000100101111101010111011000000111001111111101010011111010000010111111110111100010000010111111100111100010000001000111001000010010001010111111110000001100000000110010011111111100011101000001111010001110010011001101001001000111001101111101000010001110000011101011100000010110000100100000100000000000000100111111110000010001001111011111010100001000000101101110010111110001111100111111000110000101111110010110101111111110111100011111111001100110000010101001001111110110000110011101100101000100001011001010111,
11111010111000100010000001101110000110100000111111111001110101110000011010001100111100100111101111110000000100001111111101011000000001010111010111111011000000001111101000101110000011101110101000000110010101010011001111100001001101001111100011100011001110100000000110011001111110001001110011111111110100011111110100001001000010011111010000000110101110011111010100110101111111000111100011110111001000111111100101110000000010101101110000000110110101010000011111001000111110011001010011111011000100000000101010001011,
00001100111010010010000101001000001010100000111111101001101111010000000100101001000001100100011011110101101101111111011000101010000001100001011011110110011111010000001011000100000010010010011000001101001101110000110001010100001010100110001011101011010010011111101011101000000001111000111011111100001111100000110010010101000011100010001111111000111110111111110001111100000011010100110100000101101000000000000110111111000011110100110011110011100101010000100111100100000000101010000011111000101000010000111110100011,
11110110100110011111001000000110111100011100000011110011000110111111110110111101000010010100101100000101000010001111110101001000111111001001011000001010101111100000111100111101111111010111011011111011010011101111100101010000000001000001011011101111101000011111100001101011000000101011100000000001100010000000100101100101111110100100111100001100110110011111110001100010000010110110011011111101111000000001011111011110000101110110110011110010001101010000011110111011111101000000101011110000101010100001000100010011,
00000101101111000000011000100110111100110111010111111101010110111111110111110101000010111001110100010100011111101111100110101001111111101001111111111010110100111111011010000000000010011001100100000101011011110000001111010010000101010001110111011001101101101111011111101100111101100001011111111010010110111111011101001101000001101010101011111111000111001111010111010101111101101110111111111101101111110001001001100100000000111111000011110000011111110000101001001011111000101110101011101110000010110000110110001001,
00001100001110010000100111110001000101110001110111110001101010000000010101100111111100011111010111110010100100001111111111111011111101000001110111110100100011101111101110011001000001001010001100001111110011110010010001010011001110001100001111011110010000001111001101101011000001110010001000000000000110101111111100000100000011100110110011111110010001111111110001010001000010010110000100000000001100001111100110001010000001110000000111101100111011110000111100010011111010111101111011101101000010010001110000010011,
11111101000010000010010001001001001001101001101011100010111100001111000110010101111110011010100011111100110101101111011100110000111111100001101011111001000010011110111110001010000000101011100000000010100100000100101110100110010001111000000011011111000010001111001101010111000001011111101000001001000011110000110001010110000001111100100100000001100010100000000110111010111101111001001100001000001011010000101110010111111110101100011011111101000010000001001010000110110111011010001111011011111101010000110101100111,
11111111101101000001100011111011001011000001011011110001010111011111000111011010000001110010010011110101111100101111101101101110111111000101001100000100111001101111111110110011111110110111101100010101001110110010011010101000001011100111111111010100010101101111010101101001000000000110111111111101001010100000100010011000000100100001001111110010000100010000000001101111111111001000101000001000010110010000101011011110111111000001001011111101011001010000001001110111110111100100101011100110001101010000100101111011,
00001101001011111111111010101100111101001000000011110011111110011111110001000011000000101010000100010011010010010000001110010010111101011011111100001001011100000001000111011010111101001111010011111111010101001111011011101101111110100000010011100000001101011111101010010110000000110111101100001010001001110000001011110000000011011001010011111110000110001111111000101001000011001010111100001010100011000001101101101000000110010100010011111001111011010000101101001000111100000111011011011100000000110000111010000100,
00001011001000110000100101110101000001101100011011100100000110010000000000011000000000001000110100010101010001111111010000110000111111010110100011110111001011001111000011110100000001100000110000001101111111010001011110111110000001111101000111010010011110100000001101010101000010000010011011111011100101001111100011100000000000110100111100000000011111010000110001000101000001110001111011111110100010100001010111010011000010001000001111101100110001110000000011001100111011010010010111100001000110000001110111101011,
00001100101001100001010110000001000101100001101111100101010110000000010001001100111111011110110100000100100110101111011011000011111111000011010011110010000100011110111100000111000011000111001100000000100010110011111011101100001011000001111111010000111111101111010111110011111101011111000011110111101000110000100011110011000010100101010011111001010010100000100110011111111110110111000111111101000110101111101111100100111111000001111111110110101011100001000100110110110110111111001111011111101011010001111110001000,
00000111000110100010111101001101001100101110001011101111100101000000011011100011111011110101000011111111100001001111100001100010111111111011010011110111011110010000000010101010000011001000000000011001001111100011111011001110010001100011010011011110011010011111011010000010111101101101111011111110000011110000001010010111000000010000100011110000110010001111100111110010000010010011011000000110100111100000101110110000000000110100111100000010110111000001001001000110110110000101011111100101101110110001000000011101,
11111010101010110010100010011111001000111011011111100010100011111111100000101101111110001111010111110001110001001111100110000010111110010111101000000000000010001111100010010011000010101111110000001010011010010010011100111010000100011110000111010000100011010000010100110000111110100101111000000001011101011111111100001101000000101101000111111111000110001111010011000011111111010110010000000011011000000000100111001101111111111100010000000110010100010000010011010110111000011011101011011011000001000001011011100111,
00000001101000000000100111000100111110001010111111101010011010001111110011010110000110010001100000010011011001100000100111011100000011001010000100001110010000110000011110100010000010011100000111111100110100010000001110101110111111001101001011101010000011101111010010101010000001011010111011111010100001001111110000010000000100100010110100000010111010110001000000100011111110010001010000001110100010100000110100011001000101110000111011110110100001010001001010000010111010000010001011011110110011010001101001000111,
00001110000001000000100000010001000010001101011111100101010001001111000011010000000100101100100000000011011101010000100110001101111101001001110011110110100010110000010100001101000001001010111000001101101001110001010010111100001000011001001011101001100100101111011001101101111111111110001111111101000001000000100000000110000000101000110011111011010110011111110100000001111111011100110000001100001011000000010000110001000110001100101011101111001100100000110011011010110101101110011111011110000110010001111011110100,
00001011011111010001000010010010000110001010111011100101000010111111000110111000000001101110101111110110110011000000010110010100000010000111010111110000110000101111010100001101000001000010111100010101110011100010010110010100001100101010001011011110110101101111011110001111111110011001101111111000101100000000011001011101000010110110100100000110011100011111010011111110111110011010010000000101010000010000100011010000000001001110101111111010100001010001010001110000110110010001100111011011011100010001101110000101,
00010010000110010010101101111010001010100000010011110011001010001111000101000000111101000101110000000000100101001111110110000110111111100100001111110110011000011111110101010101000001010100001000001111110010000100011000111110010100000011100111010000111001000000010111011000000010111110010111110101101000011111110010110010000011101111011000000110101110001110111101011000111111110101100000000001010001100000100001110001111100100000111111110101111110110000000110111111111001010000110011101010011011110001111101000100,
00000011111100110001010010001000000100111110111111111000110011100000010001111100111111100111011011111100011010000000000000101100000000111000110111111001100011110000100110111100000000011100000100000100011001000010010100010010000110101010100011010010000010100000000011100111000010001000110011111101001000010000110010001100000011101001110011110000001110011111001001001010000000000110101011111010100100100000010010110110111101100011111000000011001100000000010011100110110111011101101111101100011011110001000111101010,
00001001111100100000100101100111000010101010110011110101010000101111111101001100000010000010101100001000010111000000001010000010000000111110101011111001100111110000100010001111111111001101101100001111100110110000111110000111000101100101000011110000100010110000011111011110000000111100110111111000001101000000101101101000111111101011010111111100010101100000000110001011111111000010110100001011100100100000010010101101000001111000111011111001110100101111110001010010111000011100110011101001110011100001110000110110,
11111001101111111111111011001100000011111011101011110010000100010000010111000000000100100100111100010110110111011111110000100101111110111101101100000001011111001111110001100111111111101100011100000000011001000010001000010010001000010110001111101000000011010000100011110101111101110111111011111000101101110000010111011000000010011000101011110011011011001111001111010111111111011000111111111010100110110000111111011101000000100000101000000100011101110000011100111100111001101101110111110101110110010001001100010011,
11111010011000110001100100111011000011000111100111101111110010101111011001011000000000110111001000001110011010000000010101001111000001111110101100001001000100000000000010000010111110111101110100000010111011010011011010110010001011110101010111010010001110101111100100010010111110111010010000000010101101010000001111110101000100001111000000000111111010101111001010011110000000001001000000000010001001110000011001010011111111100001111100000001011110000000110111000001111010110000001011110001001100010001011100100000,
11111100101111010010010111110111000111110010000011111011101111101111001001100011111101101001110100001001010101001111010111110100111110111110111111110010000101111111101000100100000011010000100100011000010110000010110111001111001111110100110111010100111111111111101111001110111110101011010111110110100010001111111111010001000001110111000011101111111100011111111000000110000011010010101011110010111010000000010010110001000001001001100011111010110111110000110111011111111010111100011011110011110110110000111000100110,
00001101110100010000110010110110000000010101100011101101100011110000010101110111000000101111111011110110101001001111100110100100111101110110011011111010100011010000011000100000111101101011001100010000001000010000110110111010000011110100010111011110010100011111101100001101111101100011101100000100101110010000010110011110000000101101111111110100111001100000010011111010000011001001010100000000001111111111010111001111111101100110110000001000100110001111111100000001111100101110100011110000011111010000100001101110,








