MEMORY_INITIALIZATION_RADIX=2; 
MEMORY_INITIALIZATION_VECTOR=
1110000101000011000001111010111011011111011101111111111111111000111101011010100000010001101101011110110000101110111111110011101011001011110011110000001101100011111111111010100111111011011011100000011001100011111101001010111000000111101100000000001010010110000000110111111111001001101111010000100111001111000011001011010100011001011110101101011000100000000100010101011000000110000100100001111001000111111000111111010011101111101000000010110001000110000011011000110011101011011011001111000111110110111111111100110011100111111010110000110000000101111101010010001011001100000111001111101001001011000000110100100100010010011011000000000101100010111101110001011011110101001010101110101100011000000001100000010011111100011011101111010010111011001000001000101111101110010110010010010100011010111111000011100011001110001011001111001011011011111111010110010011011010001001001111001110001110111111110011110111111100001111100000110101000010000100101100110011011110100010000001001010101001000100100111010000011101000000001101110000101000000110100110110100111110101001011111010101110011000110011101000011111011001111011111111100000011110110111011001100010110011010011110101111100100111100100000100100001000110011100000010101001111111101110100111011101011100001010001010010010000000111100001010011100100101100000000101001000010000110001011001100001101101101110010000100111110111111011101010000011111011100001110101000100111111011001000010100011011011100110000100011101100111011000000011000001111001010010001001011110000111111101001110000001010110011001111010100011000000110110111100011110110000100000000011011000101