MEMORY_INITIALIZATION_RADIX=2; 
MEMORY_INITIALIZATION_VECTOR=
0000000100101000000101011010011011100001010000111111111110001111000001010000111011110101110010000000011110101110000101001000110100001110101110111010110110010111110111110111011111111111001001111111101111001110000010000111111011111111111110001111010001111100111010010011111011110011100101111111010110101000000011000011110000010111111010111111010110100101000100011011010111011110110101001111110010000100001100010101100111101100001011101110101100110101001000001101101111110010011101011111111100111010110100101111010011110111101000010001011110111000110010111100111100001001011101001110111010111011000010011001000000000011011000110000110101100011111111111001110111110110111101111111111110101001000010101001011100001001001110111111100110001100111110110110111011111110010110000001101100110000000011001010100000000110011000111101110101111111111110000100111100001011000011001111010010101110000010111001110100001010011110011111111011110010000001111011000000001011100010001110101110111000000010001101100000000010100101100001010000000111000010111110110000000100000100000000001101111111111100000001011011110001111001110010001001111111110010011011110100011111101000010000010100110101111110101101001100001001110011110000000001001000001000100111010000000011110111110000110010110101111000000010100000011000010001011111000101110000000110010111101011011111000101110001000110111000000011000001111111010110001000000000000100001011110101010111100111101010100001110001000101010110000001111111110111111111101110001111101101000000000001100001001000000001100001111100101100010001110110001001011100011110010001110001010111010001,
0000001011011111000011010011101111100011111101001110111100011110000001010000011111101110011011011110111110100000000110001001000011011100001110110000000010111110001011000100011011110101111011101111010001001010111001011110101000001101100011000001001110110000000000001000101000000100111011111110101101101100111110111011001011111010111010111110101101110110111100011111011000010000111110111111010110000001111011011110000111111111110011001111101110101101000001111010000000001011010011111110011111101011111111101110001011101100111010001111001000000001000011000000010100011110111000010000000101010010111101010011100011110101001000101111110100011111111101001010001000011000101100111100110000011100111111000001110011101011011101110000010110111000111110100100101100000111011101111111011100011110111101111010111100000011010010010000000100001101111001111000110100001001111101010001001001101100111000110101110111110101001111111101110101000111000000010110001000011000111000011111101001001011000010000100110111110111000101101111101101011111000010010010000000001010111010111111010100101010111111100010000011111110001010011101110101010100111010110001100000011011111100100001101101101011111111111011010100000110000001001101111110111000000111000101010000010100011110011111110001101110110111011001001011110000101011111101011111100100111101001011101100100110000110001111110011001000110001101011101100100000100010111111000111000101000010000001101011111101101011011110111001011001000011111011011000000101100110001101101100001101001001010001101011010111011110001101101000110001000011011010101011111100001110000001110010001110,
1100100100100100000111000000001011001110001011000010110100000011111111110011101100000110101100011111001011011011110111010110100011101101101000001111011011011110111111010110010011110100011111101101001000111001000101111000110011011010001001001111110001101011111100110001101011110100110001101111001110001110111101101101001100011011111101111110110001101010111111110011110111101011110011100000100101101000111101101000100111111100001111100000001000110110111100011101100011010000101011110000110101000010000101010010111100010111000000111110011000010110000100101100110011110101111001011111100010101111000001110000011011011110100010001111110001100011111101100000010011100001101101000001001010101001000101100100010111110100100000111111000011111000000100100111010011011101110011101111100010001001110000101111011000011101000000001111011001100011111010011011001111111101001011111101110000101000000011101010111110110000000001010001110001001000000110100110110100000100011001011111001111010100111000010111100000111110101001011100010110100111111010000110011111111001110101111111010101110011000100011111001111000100100100101110100111001011000110011101000000011001111011010010111001010111111010000000101011111011001111011100001010000101000100011000111111111011011100011111111100000011110110001100010100011001110001110001000100001011110110111011001111010100101001100001000100100001110111101000110100010110011010010000001100101110000010000111111111010100100110101110101111100100000010000101001100000000000000011111111000110110111100100000100111111101101001101111011000011000111110111010000100001000110011101111010001111111,
0000110000001010111101110001111000000101010011111111001100100111000011000001001011111011001000011111011101001110000001010101100000001001000100110001000100100011111010111000010100001001000011010001100001000111000000101101010000010100100100001110001101011001111010111101010011111110001001110001111000010100111001110100010100000110100001010011100010000101111001001011000011111100100010101111100101101001111110010111010100001010010000101111110111000000101110011010001100010000111100010001100010110011110110010001011111011101100010111101000010110111000011011011011100110010101010010010010110101001111101000001011100100001001111101100111000010100111001010111010100001100010001001111110111010100110101110011100111010011110100011100101101111001000111110111000000011000101010010000010000110110111111110000101111101010001001111111011001111011000110001111000111111100000110001110110010000101111010100110010111111011000011001100100001010110000110110111001100001001011001001110111010010011000011010000100100001000111011000000011001010000000001001100101011110110001110111110110000000110000010110101110100000110011100011111111001010000000011110010100111111100001001100000101111110001000011000011010000010010111100001111110010000001101111101001101100011110111110101111111010011100110100000110111000000101011001100000010001100110000010101100110000000101010111110000111001100000111001110111000111110101000110001110111110011011001000010001011111110011100011110001101101111000110000011010001100101011011010101110010110000100111101100001000010111100100110110000100000111110000001000000001000000110110001010000001110100011,
