MEMORY_INITIALIZATION_RADIX=2; 
MEMORY_INITIALIZATION_VECTOR=
11111110001110001111110101010011111101111110011111110011101011010000100011001100000000111010100111110011001000011111100000100000111100010010110000000111111111110000011110101001111100111001001111111000101100101111110110101011111110011001100100001001100001110001001011001110111111101110101011111011101110010001111011101101111101101111111111111011010110010000011101101001111100111010011111110001101010100000010001110111111110111101010011100111001101001111111010010101000010111110111000000111010111101111001001101101000000100011110011111001110110001111011001011001111101100110001100000100001110010000011000010110111101110110000111101110100011100000011110010001000000000111010011111000001101110000100001110111000000100010000100001000010100101111100011101011111111000101011000000011010000111111100010000000111111000110101011110101101100100000011111000010111110101110010011111100011100000000010011111101111100101001100111111110101110100000011000000110111011111101101011111010101100100000010000100100000000101111111011111111111011010000011000011110000000001000011111111101111110010001101011001010111111100011111000000011000010110000101100110010111101000010001100000110011011010000011101011001000000001001011100000011100100011111100100101010111110000010110011111010001100001111011110101101000001011011011000000011011110001111110000110010111111111111111111111000010010111111100101101110111111111010100100000100000010000000110100010111111100110010011100000111011100100000101101001111111110111111100100001101101110001111111010010010111111000001100000010110000100011111110100100100111101001010110000001111001001000000010100011010000001110010101100000001010011001111001010100000000011001101011000000000101110011111100100111101000101000000101000001000011100110000011101110001000010100101000100000011000110100000011111000111000001101110010000000110100011000000111111001101000001111000000111111001000001110000100011110111111110001110001111111000011100101111111110011110000010100001101011110001111000011111110000111100000001010101001100000111000011100000011111010110,
00000110100101010000000111000001111111011110110000001000101111101111100000100111111110110001110111110100111110111111100001101000111010111110101000001000101011110000001001000111111010110100011011111100011010110000010001011110000000111000010100001110010100110001110100111100111101111011111000000111101001000010010001011011000000111110101000000110101010110000010110101000111110101100011100000111011100001110111110101110111101100010001011111110010000010000011001111110000011001101011111111011000011101110111110101111000100011010110111110000000111111111111001000110000011111000010000000011100100000000001100100000111101010100010011101001110001100000010000000101111110000101000000000101001111010001011010100010111110011011100011111000100011000000011101111000111101110101001111111111101101110000001000100001000010010000101111101111011101010000100000110011000000001010100111111111101010100000011011010001111101100001100111111001101011100000010000100100111000010001110000000000111110111111110111000010111110010111011000001101110101100000010111110000000000000101101011111010010010110001110100111100111110110111100111111011001101110000101111101000111110010110101111111010001000000000010011101011000001100100000011101100100101100000001100101000111110100100010111111000001010110000010111100111000000111100001000000011101100011111100010110010000100000110100111110111111101110000010011101110111111010001100011110110010111011111111000100011111111110000001111111101110111000000111100100011111111001101101100000110101110001111100110000101111101010111011000100111010011011111100110110101000000011000100000110110000010010000000111011011111110111011100011111100100000011111100010100110111100100101111100000011011010111111011110011001111101111000110011110111100100110000100111100001000001100001100000000100111001010001000001111100111111011011010100000011111111000001100101111111111110100001010000000100010000000000010000110100111101001010010111101111011101101111110111010010111110110001101111100110111010111111101110111101000010011011011011111010101100100000101100010000,
11110000110001111111111100011000111111100011111111110000001100011111110100011110000001000110101111111011000110100000001101010111111111110001011111111010000100110000010101010111111010100010010011111110010001100000011011100000000000010100101100001000100111011111110110011010000000101011000111111111101111100000000000100100000000100001010000000110100011100001001001011101111110101111010111111000011110001111001011110101111111110111001111111111101001110000001101001000000010010000001011111000000110101111000000010011000010000000001000000111000110100000010011110011000010111011001111111010100100010000001100110101111111011101010111111011001000000001000100111110111110010010001000000010110100100001111001001101111110101001010111111000111101111111110110100101000000000100010000001101001010010000011111000111111111001001000100001010111110011111111110010010000000001011100100000000100000000000111010000111111011010101110100001000010100010000100001110000110111010001110111111000110100111111111001010101111111011101111000010000100010010000100011011110000001101010001011111000000000000001110111111000000001100011111000000011011011010000000011000101111101110010110011110110111110000000000011100111111110011011100011110011011110100000010100001001000010101001100111111111101010010000001111001101000000000110110000000100010010100000011011010010000000110001011100000100001001110000100100011001000010100100111011101000001101011111000010110110111110001111001111111011111101010000000101111100111101111000100100001101011000110000000100101000111011111000011000000111001011010000010011010011111111000110001100011001011001011111100101011001000001110010011000001101110110001111101010110101111101111010101000001000100101010000010011111101111010101101110111111101100100010000001011110010000000101000110000000000011111110000111000011000000000001111100000000110100010100010001000100000111111101101111111111010111011000000000111110010111110101100101111110100001110001111111001110111111110110010001111100010100001100000000010011100111110110111100100000010110001110000101101010110,
11100111101101101111111100100100111111101001101011001101101101111111101011101111000011001100111100000100011100110000011010010110111101111110011111111000000010100000100100101010111100100001000011111110001100000000011100101011111100110100101000001101100010111101101100011010111110001000100000000011001001101101001001011111000001011111100100001001101010101111011011010101000010111011000011110110001010111111110001000111111111111010010111011011100010010000001010010011000100010111000000000010100101000000100111000001111100011100101000001000010111010000000011101011111001000010111100000100110101000000101000111000000000101101100000010001000000110000110000111100111110001101001100000110111001000001100111010011111110111111011011111111100011100000101011001010000001111110000111111100110001001111110001111100000001010000110100001010011011000000001001100101000001011001111100001000111010010001001101000011111110010011111000000001111101000000011010010000111101111011110111111011100000001111100101011100111100111001111100000111101100111111111110001110000000000011000100000101111010100001011110011011111110111011100111111110101111010000001110011100111101110000100100000101011011101111011011101010000000011000101000000011001111000000000000000001111110010110010011111001100110110000001000000011000001010111011000000100111111011111100111010110000011111100100100000000111000100000000001010101000001101101100111110100101010011111101100000010111110110100000000000110100011111111110101110110111110110001101100000110000000011111010111101010111110000000101000001110110110000000100000111101000001101111001100001001111100011111011111101101000000011000001000000011010001011111110101110001111010111100010000000001000100101111110000100010111000010101000000000001100101111111110001110101111100011001111000001110100000000000011010110110000001101101000011111011100010000000111111011011111111001111101000000000011010010000011001011010111110100010000011101011010101111111101000111111000001010011001011010100010110010000010111101101000001101111010111111000101101010001010011000111,
11101111111001100000010010111010000000011010101011010010010101110000011010101001111111100011011111111101111111000001000111110001111001100100100111111100000101000000010011000101111000110100011000000111100011100000000110111010111111010101101000001111111000001110110001000100000001010001101111111110100110111101100111011111000001011101000011111011111011101111111101010001000110111111111011011000110010100000001011101100000000101111111111001111011111110000000010111001000000110001010011111001110110000001100100111010111011011110000111111110100001011111011101000000111010110001001011111101100100100000010001010000111101000000111000011000010111101110111011010000000011000111101100000001101111011111001010110000000000000100001100000111100101100000010000110101111111010001100111110101111111000001000110111101000000110111001011101111010101011111101100101100111111010011010011111111100110110000011111100111000010000111010011111011101111101111110111100100000011011001000000001000011000111111111000010100111110001010001100000100000101010000000110111010111111001011110100000110100101100001010001011010000000001101110011110111001000000000110010101101111101001000011100010011011101100000010001010111111111100001111000101001000111111111100010100010000000111100001111111101010101110000001001101101111110110010111111111000010001110000000100110100000010001011101000000110001011110000101000010011111101111001010100000010110011101110111010101000111111010110101111111110101000001111100011001110000001001111000100001010000000101111111100010000000001110101111100011101010110100000100011010111000001111011101000100110111111010000001000010001111110010110001111111101100010001111111100000110111110101000110000000011101111111111110101011101111100011110001100001000000111010000010110010011111101111110111000001111110111111110011000110011000000001100011111111010111011011101110111110001000010001100100100000011000101100000010011010111111101110111100011110010001110100000011000011011000000110101010111100010011100000000010000111111111110110001000011110001111001010001001111111010,
00000111111000011111111000101001111101110010101111110010010110100000001110110010111110110101000011111100110011111111100100000100111111101010000011111111000111001111100110101111000000110000011100000000100010011111111100100110111110010010000100000010111110110001001010110000111110000000010100001000101101110001011100001110111101110110001000000101011100100000101011110011111101010100111000000001101110010000100011011011111111100101010011111100110000001111100111001001111110111111101011111110010110101111101110001101000001000110101000001011000010000000010110101101111111101010010011110111101110001111111100010010111110011100110111101010111011100000011001110100111110010110110011111001100111010000010000101101111101111010111000001001001111100000001000100111000000110001111011110010100000000000100101101010111111101100111111101101101100000000010101110110111110100111011000000001110011110000110111011110111101011110111100000010110011111111111100110011111101001001111000000110001101011111110110011011000000111101010100001000111010100000100111000001000000101110011111111011100001110001010000000001000001010111000100000110001010010000110100001111000001001001101011111010111100111111011110100111111101111000101000001100100101011111101101101111000001010110000111111101001010110000010100110110111101110110101111111101111111001111111001001011111101110110000011111101011010100000001010101011000001000110010000000010000000110000010100101110111111110110100100000100100100001111001011000011111110101110011000001000011101001111110011110110111111010110110100000100101001111111001010110000000001100000101111111111001000100000000110000110111111110010101000000011000110111111010011011001111110010000111000000101001011011111111110111011000010010100011000000111100010100000000100000101000010001011111100000011110100000000100101110100000001010100011011111001101001101111110111011110111110101001111100000011001010001111110111001000111110110010001111111011110100000000000101110011000001100010010011111101011110110000100010101100000001011101100000000100111100100000001101111000,
11111101111010010000001101000111000010001001100011110111110001100000000010001111000010010010011011110100110000111111010111100001111110001100101000000000001000111111100001001101111101001011111000000100000001111111100000100010111110011110111100000000100010100000001100110101111111000111101000001100011110110001001010011100000001010100110011111010001000100000000000001110000000101001111000000011001000001111000001000100000000010000011000000101001100001111111010010000000001000010100111111101001001101110000111110011000010110000110111111110101111001111111111001101000100000010111100001000010101111111110101001100000000100101100011110010101001000001000010100011000000011011111000000101010001110000110100010100000000100100110011111110011111011111011110101101000000000001100111111001101111101111101110010101111110010010111111100010011011011111100110011111111111111001110011110111000000100001001000001111111101001100010100000000101011000000100100011001111001110101001111111001010100110000011001011101111110111100001100001100110111110000100111000010111110100000101100000011001111000000010001111001111111011011000111111010111101000000011011101101111011110110000111101100101011000000001101001000000001001111001111111000101010011111110100000111111110110111010100001000010101010000011000100110000010011110010100000010101100101111011000100010000011000101001111111010101011100000100110001111111101101110001011111111011110100000100000100011111111001110101011110100101010010000000001010100000001101000001100001011110111001111111100000101111101111110010000000001001000011111100000011001111111010101110100010011010101100000001100001101000001010111000100000110100101010000010111011110111110100100000000000010110000001111011111001111111110111111100000000100101100011111101101111100111110000110100100001100000011110000000110000100111110011001101000000111110011110000000001001000111110100001111111111000100101000000000000101000111101101101001011110101100000011111110111100011000000010000001011101000101101111111011100100000000000010101111011111011111100100000101110100100,
11111010010111011111110101010111111111111100111111101011001010001111101001000100000000010110000111111101111100111111111100101000111111010000100011111111001011001111110110101000111100111011111100000101001001111111100001111010000000101111011000001010000110111111010001001010000000111101111100000101100101011110000001100100000000101101011111111101001010110000000101010101000001010001000011111011011101100000000011100011111110001101110000000011001110010000010000111001000011000000101111111110111100111110100111110000111110000111110111111111011100000000101010111110000100101010000000000100010000100000000101001100000001010000100111110101100011101111111000111100000010011010011000001001011111100000001011101101000001111010110011111101111110000000110001010011111111000100011011111110010111000000001101101001111110111000110111101111110001010000001001011010111111000101101000000010011110010001000000111001111110110101001000000011110111100000000010011011110111010110000100000110101110000000100000010111111101111010001000000010000101100000011001011111000000110010001000000000100000100001000110000000111111100101100011111101000010101111011111000110111101010100110100000001111110100000010000101110000001100101101011101111101111100000010110100100111110111011100011110111111111010000110011100010111100101000100111111100011111101111101000100001000001000101110100000100101011110000100100100111111110100100101011101010010000101111101110110001111111100000000000000001000011010000100010011110111111011010001100000000001011111111100011001010111011000110101011110011010110000000100011111100000000011010101111110000011010001111101111001001111110111001011000000001111101000001001100100110111100011001110111111101110101000000001000011010111011010001100100000100110001001111110010010101111110000000100100000101001011010000101000000111111101100110100000000001001110100001011010111101000000110011100000000101001100111111111101110000000001001011010111101010100000110000011111011111111111100101010011010110100101001111101110001001000000000111011111110101100111110000011010110101,
11101110110000110000100000001010000001001100110011011000110111101111011100100010000000110110000011110111001101000000101010011001111100001011100111111010000011111111111101110100111100010111011011111100100011101111100101011001000000011101100000001010000000001110000001011111111111010000111000000001100011101100001000010000000000011110001100000010011111001110110111100110000010011110001011111011110110001111111110101011000010100011110111101011101000000000001000010010000001010000101111110110011000001111101100110001111110101101011100000101100111110000100011010010111101001100011000001000100110010000101000001000000010000110111000010001001001000000000011101100111111111110100000000000110110010001001111001010111110101010010011111000011000001111111001101001000010011101110011111110101111110000000010111110111111000101111111111101110000101111111011111110111111111001011011111001011101101111111100001011000011100000100000000111101110110000011010100110000011101001001000000001101110010000001010011110111101110000010000000000010110100000001011101111000001000010110011111000100110000001010111101011000001010110111011110111011001101111110110100000111011110011011100000000110111001111101101010111111111110111101111111010011101110000000010011010111101111110001100000000000000010000101001110110000011111001011011111101001011001111110100110100000100101111001111111100001101001111101111001111000001100110101111111110100110010000001011010101000000110011100100000110000011000000010101110111111111011011101111111110110111111111101110111011000000000001010011110011000010101111101011001010111111000001110111101011100110001111110001010001000010101110010100000001000000010001010100111001111010110111100111111001101100111111100010011110110110111110101100000011010001111111111100011111111101010010001100001100010101000000110100110100000000011110110111111010100101100001001010100100000001111101110111110111010011101111101000101000000000010111110011101000100010001111010111101011000000010111001011011000111000011111101000011101000001100001111111110001011000110001101000110000,
00000110000101000000000011110111000001011001001111110010100011000000000101111010111110100001110111111110010011110001000101001101111110010110111011111010100001110000010000111100111000010100110111111011000001110000011110111110111110100100110000000101110000000000000100110101111111110100000100000011111110111110000001011110000000000111110111111101111000111110110000101101000110111011011011101110100101000000001000000011111110101101000111100100100110000000000011011101111111100100000100000001000111100001010000100010111110010100100011110110010011100000010110011011111110110011000100001000000000110000101001110010111110001110010100001101100111011111111100010011000011000000111011111000001100101111100010000100111110110010110000000100111000100000011111001000000001111110110100000100111010110000111000101001000001011010100000010100000001110000100011110110000000001110000000000000011100001111110011000011000010100000010111111101100110101111111110101101000101001110000100000001100010111111110010111111000010000001001011111000001001000000001001011111000001001101110011110110110010100000110010111101000000101000000100000111111001001111101110110111111111101011111000001101101000010000100001000011000000010111001100011011011111001111111011010010000001100010111011111111111111000000010110111101000000110111011111111011001010011111101110000011000010100000011111111001110110010000101101010001111111110000110000001010001010110000000100101011111110111110111111110111110001111111100000111001111111010001001100000110011010001111110001110111000001101110010100000010110110001111110101101011111110010101101011110111101010010000000100011110111110100000111100000000100110000001100101000101111011111101010011111101011101011111111010011101111000001101000111111011111111110000100100110000111100100010110100010011011001101110110011101001000000110111110000000001010101011111000110110100000000110011111000000100001011110000000101001010111111001001100011111000101111101111110010010110111101111001101011110010001110100000001100000010000001111011111000000000111111100000101110110111,
00000101110100100000001001110100000001111011101011111110000111101111111000010001000000010111110011110101110101000000000001110111000000001110100000000111001010011111101100000011000001100100100100000101010101001111101011110000000010010111111011111110001011110000001000101100111111110010010000001100101111001111011000000001111110011001001111111001111000111111100010110110111111101110010000001001000010100000101000110100111100010100111000000111101010010000011010000111000011000010000100000101100010101110100111111111111101101000111111111101011011011111100000010110111101111000000000000111111110101111111001010011000001011100100011101101100110011111100101110001111101010100111000000100110100001111111101011100111111011111100111111001110101001111010111110000111111001111000011110011100110011111101001110111111111100100101111100110000100010000010101011011111111001110101100000000101110010000011011111101111111110001000011111111101011001111111101011100111101010000011100000111111011011111111000000101000010001100110100010000100001011111001100011101111111111001010011111100100011001111101010000000111110010111110000000010011011100000110100001111000000100001101100000010100010011111110000010000000010001000110000000111000100000000000101011010111110000101101111111010101000001111110010001000111110111111100011111111101101010000100111100100111001011100110000000000011111011111111101101000111111110100111011111001100000010000000001100111111110000110101111111100000101101111011011011001111111101001011111111110110111010000010010100010111111100111101011111111000111011111011110010011000010010010010111101000100010111111100000001011000000010111100111110001111001001111110010100000000010011011011111111101110101001111110001001011000011001110001111111010111011011111111100100001111111011010111111111100100000010000000101010011000000011010001011111110010101111111101001011111000001000000001111111100011010101111101100011000000001001111001100000101000110110000001000001000000000011011111000000011110000111111101100100000111111001000011111111001010011111111101110001011,
00000000001010100000011111100000111111011010100000000000101000101111100010100100000001101100010011111111001000111111111110101100000001100011101000000000011011111111011000010010000010111000011011111000101010001111101101000101000000000100001011111001001010111111001010101011111101111111010100000000001101111111001010110011111110000011011111110111100110001111011111010111000000110000111000000110011001111110111011011000111101010101101000001011001110011111011011110011111111100001000000000010011100011101101110000111000010100100111011110100101111110000010001000001111110110101010100000010111100010000000010011001111101101000001111101010010111100000011000001011111110100111010100000011110010011111111110010110111101110111010100000101101110101111010011111101111111101010000111100111001010101111011110111000111101111000011111010011011110000000100100000100111111111101011111110110111011100001001100111110111111101110000000000101101011101111011111100010111100001011000000000101100101000000010011110000000000011101100000010011011100001111111101101101000010000010101011111111100011111110110010101111000000000001001100000111001110011111101001111110000001101100001011110110101111011111100011100110000001110100001111101011011101000000010001110111111111100111111000000001100010110000100111100100000001000111000111111011111010011111111000101011111101101010011111111110101111110000001111000110111101101001000100000000000111110000001010101000111110001011010111111001001101001111110101010101111111111001111111111101111100011111010001111011111100011010111111110000100010101111101111001111000010110101100111100000100100100000001010010110000010010011000011111010011000100000101000010111000010011100001011111000000000101111100100001011000011100101101100000100111011000000011101010011111101110101000000001000010111011111100111000000000000110010101111110111010010111111100110010101000000101010101111111101100011101111111001111001111110100100100011110011101011001111111111101101000000010000001111101111110111111111100100100011000010000010110011111011110001100000010110101001,
11111011010101010000001111100001111111110101011111111101001110110000000110000000000000001011111111111001011110111111111000011001111111011100111011111001001101110000000000001000000001110110011100000100100000111111100111111111111111010101110011110110100000101110110100101100000001000000100000001011010100101110011000100101000000010111001011111110000110110000011001101100000000011100001111111010000111100000000010101110000000001100111111111001100110001111101101111111000001111100011100000010000110101111001110000110000000001001110011111111101110101111111000101010000001111100111100000000011101100000110011011110111111000100011000000010110000011111000101000000111111011010001100000001010010111110111011000000000000001111101000001001101010011111101101001011000000011011100111101011101011000000001101010101000000101100011111010100110111100000001011001000111111100011000011111110010111000000110010111100111110001010001111111100010100110000001010001011111011110010111111111000100110001111111011110000111110011010010100001000110110001111111010010000111101011101011100000100011111001111100101010101111111011000110011111111111110111111110010110001000001011100011111111101010100000000011000111101111101110110101011111000010011100000100001111100000001001111111111110101001100001111110010000100000001010101011100000000101100000000000000011100111110101011100011111110010111110000001000011100111110101011010111111010101001111111111010110011111101110011110111110111001010010000011011000101000001110111110100000100010101100000001010101110111101110101000011101001111010110000000001011010000010011111010011010001110100000000001111011011111111111111001111110011001100100010000100100000111101000110110100001100000011110000010110110100111011100000101011111010111100010000101101010001000010000110110100001010101001110000000110001010111110011011110111111001111010010000000011101010111101110101010100000001101001111111101100001010000000111110000111101100000100100000001111010011000000111011111111100010100011100000001101100100000001010111111000000100100100110000111101101011,
00000100110101001111100011001011000001011011010111111000011100010000000000110010000001011100001111111101101100111111111001111011000000001111010111111111010011011111101010100000111111100100100111111011000010100000001111010110111110011001101000000001001010101110100110100111000010010100010000000110011101101101011101010000000001111110110111111110110111011111101001000010000010101110101111111110000010111111011100101000000001110101101111111110010100110000010000000111000010101000111111111010100111001111001010000101111101101000011000000010010001000000010110011010111011001101011011111001101110001111101111100100111110010010110111111111000110100000001101000110111101111100000111111101110001110000010100111000000000010001111000001010011011001111111000111011111111010111011011111011010111010000100000100110000001110011110100000011111001101111011011111101111111110010010011101111001010100000011101100010000101011010000100000111010110101111101011001010000101001100010100000111011100001111101001001111111101011011101011111011001101100000011111111010000000000001110000000111111000110000110111001100111110111000111000000000000000100000010101111001000001001000010000000000010100011111111001011000111111011001110000001000011011111111111111111001111110111100001000000011110010101111111010101100000011010100000011110101101110110000010110111001000001100100000111111110100101100000011110000101000000110111100011110111100000010001011010011111111111001100001000000111001000010000101101101101111110101111110111111110101011000000010001110000111101110011110111101011111001011111110111010010000000110001110011010001100111001111111111011010000000110100010011110011010001110001110111110001111110111101100000000110010000011111110000000101111001011111110000000101011010110000000101100010000000110001100100001001110110010000010100100111111111011101110000000011010101010000110011011110111111001100010111111001001101110000011100110110000000101010010100000010001110110000010000000101000010001000000011110010011110001111100110101001111110100010101011110001100000110000011100011100,
00001010010100111111101100000011111110010011011000001100011000000000010000100010000001001111110000000111010101110000010000000010111101100110010111111101101000010000000110001101111100110001000000000110101000000000001000111101000000101011010100000110111001100000001100000101111111101101001111111111001000000000101111010111000010001011111111110011111010101111100101011100000010100010100000000101011100001111011101010100000000011101011100001000100000111111011101000001000001010101101111110101000111100001001100011011000010000001110100000010001000110000011000001000000011010111011111110111100001110000001011101010111101001011001100010001000000000000000000110001000010110000110011111001000101100000101010000011000001111100100000000100000101101111101111101110000000011101100000010011000011101111111001000111111111111011101100101000000101011111101101101001111110001000011011111000001100011111011001110110000000110011110100000000000111000000011110000010000010000001101000000011001010001111101001010100111110100101101111111101000010100000011100101110000001100100110100000111100111001111101111101101111111000101100000000111100010110000011010100000000001101111001111110110000111001111101111011010000010000011010111110111101110100000001001000000000011001100001000001001001101001111011011011001000001101100110011111101101100101111110100111000000101011000111000000000101010111111101011100000000001110010100000001010001100100000011110111111111101000111001000000011101100000001010011100100000001011001111100001001101101100000011001001001000001110101101011110011010010001111100010101100111110010011110111100110110101101111110000010011000001111001001011101111111111110001100100100110111101011011101011111101110101011111100101011101111100001110000000000001000111110000010000011010111101011100100000000110100101111111100111101101000011011111110000000100011100110001000000111110111110010000001100000000100001000000011011101100000001101011000100000111101100111111110001001001000001011001010000000010101001011111110000110010111100111100010000000001101000000000000000111000,
00001000010111001111100011111011000001010111010000000010111110001111111111000110111110011001101111111111010100011111110010000011000010100010011111111001000101110000011001111000000011000001100000000101001101100000000001000001000000010001001111111111101100101111100110010011111101100101011100000000110001011110100001100001111110110011101100000101010100001111011000110100000000100010101100000011001101100000101100110001111110011100010000001111010100000000000101110111111111001011011000001011001100011110011110100010111110011101100000000100000110111111010010000011111110001010001111111000101100110000010001001010000000010111011011101111001010010000100000100001111101111010011100000010000011111111101010101011111110111011111111111001111100111111110011101011111111100010011011101101100111110000000011010011000010010010111011101011101011101111100111010110000000111111011000000111001010010000100010011111000000101011010011111011000111101111101010111000000000000001000100000001011001001111101010011010000000100001010100000001111000101110101110101010000001110001011111111100111010101110000110010010111111101001110111111111110110000000001000101001000010101100100111110101100101100000001010011010111110000111101000000001101111101111101001000101000000011010001111111011101101011111101110100010111100010011100111111010110110010000001001000010111100111000001011111110111101101111101010111100000000111000010011111010011101101111101111100010111110111111111111111000101110111111000001101011000000000100110100000111101010111111010001111110111100110000010000000100011100101111011100101100111110011110110111110111010011000000001111110001000000000110110111110110010001001111110011100101000101001011000000000001101101010000010101101001000100001001010000000000010111001111101011011111000010100100110111111110010110001111000110001011111111100001101011111010100010111111010100000110111101111100100011111100000101111111101000001110000011100010010100001111010110101111111001011011000001010011111100010000000000001111110011100101111110010001000000000101010010101111010111101101,
00000111100100111111110100000100000001010101010000010100110001101111011011110011000001110100111000000111010100101111010110011111000011111011001111111011011100001111110011010111000110101001000011111110111000101111011111011101111111010101011011111011110010011111011010000000111101100000000011111011000001100000000010111000000000111001110000000011011111101111011101011101000000001101001100001010101000011111110101101001111011010111011100010100011001010000000001110001000000000011110111110110011111111101111101101010000001000110010011111011100110100000010010011110111111101100011111111010111100110000100101001010111110000101100111101100001111101111100000010011111111100110100011111100101101111111111010010001000000011111101111111010111000110000010011100110000000101101001111110000101111000000011100110011000000011100010111010110101000011111101000010010111110110010001111111000101010110001001011011010111110010010101111110111011101011111100010111101111011011111001100000101101011100000100001110011111101011000011000010011110110011110111011100111111110001011010000000110110010101110010100100000111111101010000111111010000001010000000110110000000100011100111111111000100101011111111000001011000000101010101111110100111100100000011011000101111111110110011100000100000010000000000101101111111111010111101011111000010000011111101111100010111110111111000011111111101101100000000101011011111111100111110011111110001011001111110110011000111110011001101011111100101101110000011110011100111110110101000000001011001001101111011011100010111110000001101011110011110010111111111000011000111111101011100111100100000010010000011010001111000010000100101011111000110010100001001100011101111111111011110111111001110010011111010001110111000100100001011000000111101110101111110001100101111111100001100100000110100000011111001111011110111110101111011100000110110000101110100110000011000000111110000111111011011100001111101000110001000010101110100000001001010100101111111110000000000000100001110100001000000000011111011111011001111110111001110000000010000011001111010100000010,
11111010100110000000011101101011111110000000010000000111000111110000000001011110111111010101111011111011011111101111111111101011000000010011110011111001011000111111101011011010000011011001011111111011001111010000011100001111111111111010101111110101011011110000000111111110000001011010000000001000101011101111100101000110000000110011001111111111111001111111100000100111111111011011111100000111101011101111001011101010000001100001010000000111001001001111110001101111000000001010111000000000100010101110011011000001000000000111000011110111100110100000000000111110000010101001001100000000111000010000111011101011000001101001010111111011101110011110111000111000111110000101011111111110110110001101111100110111111110100000001000001100101001000000011010000001000001011111001011101100100100000000001001001100000000001100001011010010101000001111101011010010000010001001111111110101111001110001100101100111111100101010111000000001110110100000000101010011111010110000011111111011001111110000001110010001111101111101110100001100010101111111000101010100000000111110111011111001001101101110001011000100000001101100100111111111100001001111010110011101000100000101100000001011100100110000010101001110000010000100011000010001001110001111100101011011111110001101000111111111101100100000011101011011000001001100110000000000001100011111101011111110000000101000110111111111100011111111111010111000000000101111011011110000111011011111010110111011000001010001101100000000010011111111110101110111000000001110001100000110010111100000011100111101111011101111001111101010000100111111011011111000000000010000110111001110001100011111111111001110000010001011010111111111110010000001111100010100111100011110100100001011111000010000001000010101111010101101011100000111111001100000100110100000000000101111001100001001101011111111001101000001111111110101001000000101111110101110100100101010000000000101101000000001110100101111011011110111000100010000011011110011111100011111111100001001000001111100111011111100100000010000000001110111111101100111110000000100010101011111110101010001,
00001000110000101111111011111111111111100010111100010000010100001111110001001110000000010110011100001010010011010000001000000110000010011110101011111010010101011111011011011011000000001100011000000110101001010000010100101101000000000110100011111101111101011111111111001011000000000000010100000101000101101111101110111111000000011111011011111111110100001111101010111001111111001010110000010000000010101111100111101101000001001110111000001100010100000000010000110101000001001100011111111011011100101111100110001101111111100101010011110111001101010000010111011110111111010000011100000011000101000000011011001111000000101110100100000101101111011111001100101100111110110010001011110110111000001111101001100101000000000010000011111101011110001111001000010111000001001101000111111011000010110000010111101010111110011111110011110010010100010000100011110101000000110100111111111000001110110000111110001010111111111100100111111111101001011111101010100101111110100001101011111110110110110000101000101001111110000111011111111111111001001111110001000111000001011011010000000000111111111111000101111101000010010000010111111110011010101111111011001100000100101000010100000111111000000000000001110010111111011011100100000010101011101111101000100111000000010111010100001000001001011111110111111100000000101100101011110101110001101111101110011101000001011111111111111001010110110000110001011101000001000010101011111110011000110001010011100111000000111100101111110101011000000001001111111111111111110110000000001010111000110000010001000110111100101100001011100110110010111111111011001000000010001100100011010000100000000000011101100010000000010001001011110011010011010010000010001010111101001100000100000011111101001111101110011111111000110110001000000010010101100000011101111000111101010101001000000100110111001111011111010110111111010111011100000010111001111111010110001001111111000000001000000110110000011111111111000000000001000101000100001001011110001111100011100101111110110010001011111011000011000000011001101000000000111000111011111111100101011111011111110001,
00010100100011011111111010110101111111100011001000100111001010001111110101111000000000000100100100000100010111011111000101011101000001011001001011111000100000010000010010010010000101000111101011111101010000010000000011110111000000100001110011111010110001010001111011111011000000000100011011111000100001000010111011110101111111101111111111111010011010001111111100100111111101101100010000001011110010111111011000010000000010100101110100011011011001110000000111101011111111101010110000000101111011000000110011110100000001110011011100000010010011101111011111010001000100010110010111111110010010100000000100010110111111001000010000000011110000000000101011111110111111110110000011110111001010000001001001000001000000100100011011110111100111000000010001011000000000111010111100010110010101101111101100111111111110001011001000100100110101110000011000001011111101111000110100000000011111101111011110000100000010010011100011111001000101011111011101001101000100000101010011111101000001101111110111101110000000000000001100000001010010111111000101101111000001100110011011111000001001011111011101110111111110010000000100001001001101001111011110110100000011110011111011100110101000110000011011101111000000011000000011100011100100011111100110010001000001101100110100001001000011010000100000011110000000101111010111111001000100100000000000110101111111000010000111111010101011100000011110100111111110011010111100000010100011101111111011001010111100000100100111111100000100110000001011110110111101111001011000001010001110010000100010101011111111000011000011111001111011011111100111101110111101110000011111110110110000100000001111101001111111111010110011111111000101100001010011001011111111010000101111111110010001011111110101010100111011010111111111110110111111101111110101101011111111110010000000001101100100110000111101101001000010101010001000000100101001010000101010011011111111011110001000000110001001110000001011100010000010100011100100001110010011000000001001101110111110111111110100011010101000001111011101000111000000110101001000000110001001101111111010110010,
00000100110101100000010010001101000000100010001011111111111001010000001101000011000010001101011111111111101111001111110011100001111110100000110000001000010011001111011111011000000000110111110000001000010000111111100110110110000010011101100011111100000001111111110101111100000001011010001000000110010110111110111011001111111111111111101011111111111101011111011100100011000010000101111100001100000001000000100011111111111110101100111000000110011100010000001111000100000001100111011000000001101101111111010110101000000001010010010011111000101001101111010010010011000001100000111011111011111101011111100110010110111111101100110111101000111011011111101101111100111111001010110000000010101001010000001111000111000000000000001111111011001110100000011101011110111110111011011000000010010100110000010010011100000000000011000011110011001010000000000101110010000010001010010000000001111101110000011011101100111110001110001100000100101001000000001000001000111110000111100011111101000111010000100101101100111111111110001000001011010000101111010111000011111111110001011011111101000001011110100100001010000001100000110111111110101000001111111110110110000000010000001011111111101001010000001111001100111110110110010011111100000100100000010100100001000010001110010111111001101100111111111001010001111110011110100111111100101011101111100110101011111110110000100100000011101101100000101100011011000001101010101100000100100100101111010001000111111110011000000000000111010101011111011101011010111110001010011100001011011110101111011010000001111111111000101000000000010111000000000001011011111110110010111100010111101000101111110101110110000001010011100111111100101010101111100110010110000011100011001100001101111101110000011100010001000110001001110011111100010000111111011101111101000000011000010000000010001000111111010010001001000001111000100011111100110110001110111000111101000000001110110000000000001011000000010010100001111111100010011000001000111010111111101001111100111111100111101100010011011101000000000010011101111111000110101111111011111001011111000010000101,
00001010001010111111010100000010111111100000000100001100010011011111111110110010000001101010111000000101001110001111000000010110000011101111101011110111010100101111011110001001000101101011001111111010001111100000010011100001111111101100100111101110011000010000011000100001111110010011000111111100010110000000001101110010111110101100010011111010100011011111110011111000111111111010100100000101000011101111001001111001111100010101110100010111001100011111111101001100111111010001001111111111001001101110110110010000000010100010110011111101011011100000000010110010000010000101100100000001100101111111100110000100111101010000011011101001011011111110110100000000000000000100101111111101100100111110111001010011111111001000001011111010011111110000000011100010000010110011000111111110011111100000000001111011000000100000111111111000001101001111110101010111000010001011101011110110100000000000010111011000111111011000010100000000010100010000000010100110111101110001010011111110010011100000011100011101111101110101000000010010101100101111000000001000111110111001000000000111110011001110010110010101111111010111010000000111100000000000000110000011000100100000011100001100100111110000011010001010111101111111010000001011101000111111110011111100111111001101000111111100110010111111110111010111000011000011000011111000001010011111101100110110000110111111000111111110000010011111110111010000111110101010001000000000101010010000011010010000111110101110011111111010110011101111111110010100000001111100000011111100001101111111011011100111111110110110101011111000010100000000010111000010111111110110010111110011000101110000100001100100111111100100001000000000101000000000000011010000111110101010001111111001010001011111110110001010000001000010000111111010100010010000100101101000000001111111110100001000010111011110110110000011000000101011110111111100110101001111000001011000111111011011010000000000010110011111111011010010000001010100111000000100101000000000011110011001111101001101111000100011110010000000100000011001111111110101000100001100010111001111110000111101,
00001110011110111111101000010110000000101100000100010000011000000000000101100001111110001000010011111111110111101111111000101111111111110011010100000001001111010000001101010010000100111001010011111101110000010000000111111001111111010101011011110110111100000000011001010001111111001110001100000101100111010001011001110000111111111000110000000100011010010000001000110000111100101001110100000111110000100000001001011101111111010110100100001110010001000000010110110100000010101111011000001010000111101111001001101011111111100101111111111001100010110000101001000000000010101100000011111001000011100000000111110010000010111111000100000001111110101110001011110111111111110100100000000110001100101101100101100100111110101110010100001101000110100000001001000001000011011000010111110111111011111111111100111101111111110010011111100010100010110000010000100100000001010110000111111100000010010000110011011110111101001010101111111000010000001111111011110101111010111101100100000101011001100000000001011101111110000010111000000110110101111110011100010010111110011011110011111110000000101101101100100010000000100000010011111010010110100000001000101111000001010001000000010101011101111111110111000010111111100111101100011001010011110000011100111100111110111111100000000111001110001111101000010111000000011010101111111010010111100000000001100011000001010001001111111110100101100000101101110011000001001000011011100110000011101111100010100100000001000101000111110110101110010000100101011011111111001011100000000110000101000000011111000010111110011010100011111011001001001111110111110111111110010010011011111010101000000000001000001100111110111000010011111100101000000000010000011000111110000110011111111011111000111111101001001011111000010010111100000000001011111111110011100011111111011010111000000111001111111110100010000010111111100110010011111010011011001101101010011110111101110011111111111011100111101111101111000100000011000100100000001001101001010000110101010001111110011000101100000011101000111111101110010010000001011101000100001000100001111111101101001011,
00001001000010000000101001000011000001000111010100100001111010101111110011110010000000011110011000000110001101011111110110011111000100101010010000000111011110000000100000010010000100100000010100000110010000011111110010100011000000001101011111110101010001010001110011111100111110011010001011111110011010100011100001101010111110110011010100000001101011000000110101001010111011001000010100010010000000101111110100100101111111111010011100100011000011001111100101110101000010001000101000000000010000100000001010111001000010110110100111110111001111011111111111110101111110111011000011111100000000100000011100001100000001000010001011111101010100001111001101010001111110101111010000000000010110101101110101111111000001111110001100000111000110101111110010110001000010000110001011110100010101000000100111110111111110111001110111011101110111101111110010100111000000001100011111111101010001110001010001111010111110101100110100000010101101111111100100000110111011111100100111111101111100110000010101000011000000100010110111111110000110111110111100010000111110111100011000000001110101001110001011111101000001111000001111111010100010001111101011111101000001011110000100000001110110010000000101001101000000101011111000000001000011011111110010110001000010000000000111111010100000100000000110011010111110111001011011110111010010011111111000101011111100100110111000000111100100010000110111011110000010010000110011111110101101100000001100010010111111100101010011111011100001110000111100011100000010000111000100001000011011110000010111000010111110100011101011111011100110101111100101110111000001000010101111110100011000011111100101011001000000010001000011110101110011110001001001110000111011101111101011111111100000000000011100101100111010000010110111111010101011111111101101101001000000001000000100001001101010011111000111000010000000101011001111111010111111011110001000000011111101111000100111111010001111101111110111101111000001101001010000001111000111000000010100111111111111011010000000001000111110000000010001111100111111110101100000001001111000111111101000101111,
00001101000010111111100110111110111111001000111100100100001100111111100011010001000000100111011011111111010010111111110010110101000101001110111100000100110101100000001101110011000111010000000011111101110111111111110100100101000010101000000111110100001111110010000001010000000010010000101111111011000111110100001001000101000010001111010011111001010011110000010101100111111101100001011000000000110110101111101110001001000000101101011100000010001001101111111111100001000010001100000011111110110100000000111011101000000010000101010111110111011001111111101100100000000100100000011000000011010000010000011010101011111101010100000000010001001001110000111100100101000000101011101000000111000111110000000101000100111111100000110011111011111101011111111011111110111110011001100000001010100110111111110011100001111111111010001100010011000000100000010110000101111111001001111111110100001011010000101100100001000010110000000000000001111110100000011010001011000100001011101011111000001100011111101011001111111111010011000000000100001101001111010111010010111110001001011100000100100111011111101010100110111110011000111100000011001100001111101100010100111111111000110011100001101000111111100111101000111110100100111011001100000111010000001101111101000100000000001011111001010110001111111101101010111101001000011011110000011100010000001001110010111001100111100111111110001011000000111000001011000000111011101100001000101010111111011100000100111101000000101011111111100001101111100011001110000000000001011100000111110100000000000111101111000010011111111100000101111111101111110001010100000001011001011100010110110000110000011111111010000000010000001111110111111011100000000111100001111100110001110011111011101101000000000110001100111010100010101111111100001000000000100101111010000000001000101000010000110111100000110000111000000001001110100111111000100100000001110100000000000001110100110011111101001000101111110100100111000010010110111000010111001100000000001011111111000000010111000000100111001010110000000000101011111111100011110000000111101001001111111110100100,
