MEMORY_INITIALIZATION_RADIX=2; 
MEMORY_INITIALIZATION_VECTOR=
1111111110001111000101001000110111111111001001111111010001111100000011000011110011011110110101001110101100110101110100101111010000001001011101000000110101100011000010101001011111111110010110001101110101111111000010111001110100001011100010000001010000000111111100000001011000011111101000010000000001001000111000000010100011011111000101110000000100001011000001111111110100000001100001110001010111010001111011110001111000011000100100001111010111101110000100111011000011111011101100100001000011111011111110111010110111111110111000100001111011100001111111010001111111111100000111000000011101110111000000010000110111100011010111010001100011100001111110110101111111111110001000000001101111110010110111111011100011011101100100100010011000011000111100011100010100001111101101101101011101111000000111001000111000101101000000111101110101101000111101000111111011111100011010111111011011010011111010111100111000000010001101100001010100101111111101011110010111111100011000110001011001000101110111011100111011110110011000110000111010101111000001000110010111000101101001110001000111110011000110011110110111000010100001011101100011000101110101001010011000000011001011100000100001010011111111011010011011110100011111111111001100100111000001010101100000001001000011011110001101011001111001110100010111111100100010101111110111000000110110010001011100110010101010011100111000010100110101110011100100011000101010011111011001111011111010100110010100001001011001000000011001010000000010110101110111111100001001101111110010000001110100000110111000000101010111111110111110011011110000011010001110111100100110110000001110100011